!
! love you
!!
!!!
!!!!!
!!!!!!
!!!!!!!
!!!!!!!!
!!!!!!!!!!
!!!!!!1
!!!!!!888888
!!!!!2
!!!!1111
!!!123
!!!12Jps
!!!415yitianxian
!!!521284
!!!54205420
!!!666666!!!
!!!75LAMBDA76
!!!770322
!!!789!!!
!!!789456123!!!
!!!@9Q
!!!@@@
!!!@@@###
!!!@@@13g
!!!DIANA!!!
!!!Daniel
bond007
!!!ICH
!!!aaa888
!!!abc123
!!!andras
!!!anthony789
!!!azman!!!
!!!cipan!!!
!!!ferenc
!!!mco123
!!((
!!010799
!!0123210!!
!!11!!
!!1148!!
!!11QQqq@@22
!!123456
!!1331xxx
!!199858qlf
!!1q2w3e4r!!
!!22QQwwEErr
!!232366!!
!!686219
!!7711
!!8558!!
!!@&!&
!!@@##
!!@@##$$
!!@@##$$%%
!!@@##f16
!!AdminMan
!!BooBoo08!!
!!CS25!!
!!Geld!!
!!Hblks75
!!Jed02?
!!Love123
!!P4$$w0rd
!!Samsung
!!TONI!!
!!URdead
!!_bleh
!!abc123
!!art!!
!!asie!!
!!cheetah
!!erooster
!!ert01!!
!!eschool!!
!!florian!!
!!fredrik!!{}!!{}
!!gang2hui!!
!!hsram3
!!jebatga!!
!!jf!!
!!kerstin2009
!!legolas!!
!!lerm@@$
!!lol!!
!!louise!!
!!m0ndz0rg!
!!m29111986
!!manu!!
!!mayong152468
!!mercedes
!!notpassword
!!opas4!!
!!pis0l0&_
!!qw**
!!s.king!!
!!spiggi!!
!!stinger!!
!!trx15
!!woaini1314!!
!!woxiangni3344
!#!$870607
!#!(&)n
!#%#!#^@
!#%&()
!#%&*^$@
!#%&123
!#%&@$^*
!#)!)!
!#)%)&
!#COGPHO72220
!$*U4U0X3UCK$!
!$4BE113
!$@!rahas
!$@@(
!%(^#@
!%=/(&
!%^^
!&TT?
!(!)(#
!(&!0117
!()!
!(*!1981
!(*!MYlife
!(*$)*!!yy
!(*&!(*&
!(*(0925
!(**
!(*^!!@)
!(@*#&$^%
!(@*#&$^%)))#!
!(HAPPY_JOHN)
!(^%&@
!(wang40
!)$))Upperhand
!))"traxdata
!))==&!$
!)/Up
!)0LLAR=99?
!)f%***
!)niko
!*!
!*^@XXX
!-lol-!
!/.,;*$@_-
!001001
!01740169
!01Admin
!0207.
!02robin06
!08HD02RS!
!0909!
!0ok9ij8uh
!1005s
!109m6*2
!1111111
!112233+
!11mambo05
!123*%
!123456!
!1234567
!12345678
!123456789
!123456789/*-
!123456@
!123qwe@
!12Azsxdc
!12police12!
!1341583138
!14061984!
!1561990!
!159357!
!15pony
!168168!
!19750114!
!1987112
!1987112!
!1996Avs
!19@
!19@eTs
!19Jtc96
!1@2#3
!1@2#3qw
!1BoBo1!
!1Brazil
!1Gwestgate
!1MALIARAS
!1aliang
!1arris
!1dekkie
!1elefant
!1frede
!1michael
!1onewon
!1q@2w#3e
!1qaz@2wsx
!1qazaq1!
!1tomate#
!1uclinux
!2#4%6
!2#4%6&8(0
!2004lun
!2010wuxiwen
!21781!
!227277!
!230987!
!234!
!234567*
!2345678
!234567890
!234@345
!234Qwer
!234lj
!234qwer
!23QweAsd
!23g90
!23qwe
!240889
!2776119
!28gravis
!2906Tobias
!295528!
!2QwAsYx
!2WM1AV5
!2appleba
!2fzspac
!2joom3$
!2r4nd0M
!2triv2g
!2zul@5
!30606123
!320163!
!37220282
!372437!
!3ND3CA!
!3baseball
!3ws444
!3zsatanasa
!4023!
!426523!
!4872548!
!4=24
!4freunde
!5201314!
!521xudoudou
!5678469
!5h3r1d4n!
!5kuailewuhao
!6065941
!62sdhs71
!65Crichton
!66@#
!67WW$
!6CA-F
!6UNS3GR3T0!
!7176607!
!753951gd
!7562lj150202
!781121@
!7J212
!7XBIND1O
!7rus7n01*
!803!
!8394870
!881116
!9*8)6!0
!90skinner
!96nymets
!97132977Michaei
!9830310
!99!99
!99six%
!=MD*.
!?!?!?
!?amer123
!?sEbc!?
!@
!@!$09zhang
!@!)((!@!)((
!@!@124578
!@!@srn2
!@#
!@#!@
!@#!@#
!@#!@#!@#
!@#!@#!@#!@#
!@##@!
!@##@!!@##@!
!@#$
!@#$%
!@#$%!@#$%
!@#$%12345
!@#$%12345j
!@#$%12345qwert
!@#$%67890
!@#$%JDBC123
!@#$%^
!@#$%^&
!@#$%^&*
!@#$%^&*(
!@#$%^&*(!@#$%^&*(
!@#$%^&*()
!@#$%^&*()!
!@#$%^&*()!@#$%^&*()
!@#$%^&*())(*&^%$#@!
!@#$%^&*()0987654321
!@#$%^&*()_+
!@#$%^&*()_+den
!@#$%^&*()_+|
!@#$%^&*()a
!@#$%^&*()fvck
!@#$%^&*(0
!@#$%^&*)
!@#$%^&*)(
!@#$%^&**&^%$#@!
!@#$%^&*12345678
!@#$%^&*1qaz
!@#$%^&*9zxc
!@#$%^&8
!@#$%^123456
!@#$%^RR
!@#$%^^%$#@!
!@#$%^dearbook
!@#$%^nino
!@#$%sss
!@#$)(*&
!@#$1234
!@#$123456
!@#$1234abcd
!@#$1234hi
!@#$1234q
!@#$1234qaz
!@#$1234qwer
!@#$1953
!@#$1989qq
!@#$1990106()
!@#$5678
!@#$JG%&*
!@#$QWER
!@#$QWER1234
!@#$QWERasdf
!@#$abcd
!@#$chengaoke4
!@#$qwer
!@#$qwer
!@#$xYa
!@#$you
!@#)(*
!@#0619
!@#123
!@#123!@#
!@#123$%^
!@#123456
!@#123QWSA
!@#123abc
!@#123asd
!@#123ha
!@#123q
!@#123qwe
!@#123qwe1
!@#123spf
!@#2110vn
!@#310906
!@#343330$%^
!@#456
!@#456&*(
!@#456&*(ABC
!@#45678
!@#456qwe
!@#5201314as
!@#6144823
!@#800206Cbc
!@#840920
!@#886468
!@#88g05wx
!@#90
!@#<>?b1j2h3
!@#A!@#
!@#BB
!@#EWQASDCXZ
!@#JIN456
!@#Jason
!@#LUI82
!@#Password9
!@#QWE!@#QWE
!@#QWE123
!@#QWE123qwe
!@#QWE456asd
!@#QWEasd
!@#QWEasd
!@#Rohan
!@#Tim81
!@#abc
!@#abc098
!@#admin
!@#admin$%^
!@#clubdown
!@#cool08
!@#easy$%^
!@#fgs123
!@#fuckmm
!@#fuckmm123
!@#guitar
!@#guohuan
!@#hacker
!@#jingjing
!@#js$%js
!@#kevin789
!@#lobsang#@!
!@#notimportant
!@#peng*()
!@#qaz123
!@#qwe123
!@#qwe2315
!@#qweasd
!@#qwedsa123
!@#sae123
!@#sinistro2003
!@#sr
!@#trumbull
!@#xjh$%^851013
!@#yakumo
!@#yangyang123
!@#yun520
!@#zaq0
!@#zhangfu!@#
!@#zhuweiok
!@060512779!
!@123!@
!@123456
!@12AZaz{]
!@1981
!@34QWasz
!@34QWer
!@34^Hd
!@@##$$!
!@Admin#$
!@L@B@M@#
!@Ndre1
!@Ns!@
!@Q9999999
!@QW12qw
!@Schweiggers@!
!@_-
!@cocoa
!@dan!@#
!@dongha
!@goblin!@
!@hgdf5
!@ke5ide
!@m1104#
!@mon!@#
!@q
!@qllpysys
!@quoia!@
!@qwaszx
!@tanthinh
!@vancuupy
!@virkm@!
!@zjcazlq..
!ABC123789xyz-
!ABC13653286348
!ADMWSH6400"
!AGOSTOS1
!ALEXIS
!ASTROS2
!Ad3miN%
!Asdfj13
!Aus6jfb
!B8Fbm#L
!BNMbnm
!BaldricK
!Bandit9630
!Belthazor69
!Birthday
!Buldozers
!C0rnd0g
!Cavedog?
!ChArLoTtE@
!Cheyenne1
!ClancY9
!Conan!
!DAKITA!2808
!Dakis123
!Daniele!
!Deviant19!
!ENT3PRIS3!
!ERTUY18
!F33h!
!FU(K3R$!
!Flower54
!FranEdith
!Fyj650684
!G1RA;FE
!GC0nt
!GCADMIN$
!GUOGE1989930@
!Garde37
!Geheim2009
!H0tc0ffee
!H@cker1
!Hamburg?
!Hax0R!
!INXS!
!IZMO5WEB9*
!Information78!
!Isla1981
!Ithiel*
!JISUNGIN@0503
!JK2384
!Jadranko!
!KPLBW!
!Knaller!
!Kobus*
!Kung..JohN_
!L.9p!
!Lara21!
!Lebowski69
!Lena79!
!Letmein1
!Lh@b4Gt
!Linus12
!M0nday1
!M1PhoIAD2
!MEALT1ME
!Master5
!Munic0!
!Mw1226!
!Myr1am1
!N3pierce
!NTerest!ng
!Nab0rs!01
!Namaste
!Narfas58
!Neorave
!Nert!@l
!Never1
!Never90
!Nicole08
!Noci!
!P0pTarK
!PASS1234
!Passw)rd
!Passw0rd
!Password8
!Popel99
!ProGamer!
!Q!W@E#R$T%Y^U&I*
!Q2w#E4r
!Q2w3e4
!Q2w3e4r5t
!Q2w3e4r5t6y
!Q@W#E$R
!Q@W#E$R%
!Q@W#E$R%T
!Q@W#E$R%T^Y&U*I(O)P_{+}
!Q@W1q2w
!Q@W3e
!Q@W3e4r
!Q@W3e4r%T
!QA2ws
!QA@WS
!QA@WS#ED
!QA@WS1qa2ws
!QAZ#EDC
!QAZ1qaz
!QAZ2wsx
!QAZ2wsx!QAZ2wsx
!QAZ2wsx#EDC
!QAZ2wsx#EDC4rfv
!QAZ2wsx3ed
!QAZ2wsx3edc
!QAZ3edc
!QAZ5tgb
!QAZ@WSX
!QAZ@WSX#EDC
!QAZ@WSX1220
!QAZ@WSX3edc
!QAZ@WSX3edc4rfv
!QAZXSW@
!QAZXSW@#EDR
!QAZXxzaq1
!QAZxdr5
!QAZxsw2
!QAZzaq1
!Qaz2wsx
!Qaz2wsx3edc
!Qaz@Wsx
!Qaz@Wsx3edc
!Ram3rez
!Raven$
!Redeyes1
!Riot!
!Runfor12
!S2004#
!S4.sZe6
!SD1P5
!SHADOWZ
!Sector/G
!Sinterklaas
!SolteK2004
!Steffi!
!Sumsi
!Sun*07
!Sync55
!Sync550s
!T3lgu@
!THUND3RBIRDS!
!TOPSECRET!
!Tangos1!
!Travian6
!USA1#$
!Umbra!
!W781109
!WCIMDRM00
!Wo@ai#meinv
!YS(EYQM+9O3A1
!Zoy4ever!
!\"!\"
!\"looser
!^)!!$%^&
!_!bLoWmE!_!
!_4WHEE1ER_!
!_o&lana?=
!a05fd25
!a200411
!a2s3d4f5g
!a41d742u
!abcd1234
!action2010?
!acwdwa
!ada88!
!adm1234
!adm5678
!admin!
!admin*
!admin123
!ahgdl!
!ahmad
!aineg
!alban74
!aleynam!
!alfarr
!anby*250443
!andreea90
!anh222!
!animal1!
!arcibald0
!arp491083
!asasas12
!asd425!
!axel.3?
!bagdaddy1
!baxter!
!bayern1
!beginnen
!belgudei1
!berlin08!
!beste6
!boberek22
!bonoedge1
!boshito!
!bsa1983
!btlpd87
!bubbles!46
!buffy5
!business
!c3gNRs
!caroline
!cascabel!
!chang196337
!charabia12
!cisco2600
!cisystem#
!core!
!costa!
!creamy212!
!credit
!credits
!cs
!csokik!
!csuz7dv
!cxz!123!
!cyerk?
!d0T3d_!
!d3fn1n
!da$Edd7
!danial23
!dbxm.cn
!ddf56h
!december1987!
!deffered1
!dell!
!diane1
!did1lap
!dimos!
!dingfan19891010
!diniz!
!dotmedia!
!doudou!
!drb123456
!dre$con
!dreams09!
!dri3#s!
!dulcere
!dvd!
!echo2010
!edc
!egiTO
!elDuck!
!empresa@!
!ens@iie!
!epix123
!epsilonabel
!eshua01
!expo200
!f5admin#
!fanball1
!fazil@!
!florian.
!flwa93b!
!fm3!
!fomina!
!forum2003!
!freesia
!fu11m00n
!fwd1snix
!fylhtq
!fyzaipxd0324
!genglong
!ghi33rt
!gholmorad!
!ghsmaint1
!gn0ramu$
!gravity!
!greenBEANS
!gurkensalat?
!gusdhr12
!guyu1219
!gw19830814
!h123654
!h3lpm3$
!h4t3cr!55!3
!h@1mp
!hEather
!hWq184
!hacker!
!haha_king
!hallo!
!hardth1
!haywood3
!heibrock!
!helpme#?
!henry14
!holly!
!hpg3!
!huapingXF520.
!iamjeff0
!icebeam!
!ictmg
!ieacmt176
!information13
!infosys123456
!intesys?
!irina!
!ironchef9
!irrenudel
!jackass!
!jackie1
!jamas24
!janolly!
!jcsmith
!jerry!
!jin3578
!jindujin!
!jkb1174
!jms159
!joe90!
!jona19
!joseph1
!jxf35330832
!k1ll3r!
!kacyseeger!
!karma
!katja?
!katya!
!killme
!kr3vian
!kung454
!kur666!
!kurepa
!l0v3rhonda!
!l0vensnc
!l3c7r0
!l^A
!lab719
!lada92!
!lampard08
!laozhao001@
!lch727@
!leo2002
!lh4!
!linux-usb!
!lmt75xiq
!loper
!lore2005
!lorenzo!
!love!
!love216417
!lukas4v12n85!
!lxh3860209
!m0jaR67
!m0uth
!m3r0n!
!m4l4k4s!
!m:.K?nhb
!madman!
!master123dooker
!mesmoeu0
!micro@
!miro!
!mmb1966
!monday1
!monica12
!montclair07043
!morenike1
!mp*kolt
!mpuorg2!
!mum3cyj
!murcia
!n0xcr0m
!nKUu7f
!nah!
!narkis123
!ncub@d0
!nd!@@$!@
!nektar!
!neomaster
!newmessages!
!newsock
!nf0rm@t!c@
!nfinity213
!nicole16
!ninesux
!nisse789
!nkts!
!noexit!
!nova234
!ns4sure
!ns@n3
!nsane
!nsid3r
!nt3gr@nd01!
!nt3rpr0f3ss!0n@l
!nta@1234
!nte1!ns!de
!ody2
!olga1@
!olleoo22
!omega0!
!omgwtf
!onkel?
!optimus
!osorio!
!oszimt?
!p0pl0ser
!p@ckw00d
!p@ssw0rd!
!palac3!
!paris0
!pass
!pass1234*
!passNosoucy
!password
!password!
!password09
!password1
!password@
!paxpayme!
!pdpdrums!
!peanut01
!penaltybox1
!persson12
!petunia
!ppelm0es
!praise
!prasad1
!promqueen
!q123456
!q1w2e34
!q2w3e4R
!q2w3e4r
!q34z75@
!q7097
!qasw2!qasw2
!qaxsw23edc
!qaz1QAZ
!qaz2WSX
!qaz2wsX
!qaz2wsx
!qaz2wsx3edc
!qaz@wsx
!qaz@wsx#edc
!qazXSW2
!qazxsw2
!qazxsw2
!qazxsw@
!qq793320394
!quetic0
!qwe1016
!qweds
!qweds123
!qwer1234@
!qwhb125
!r3d1al!
!rad2!
!ramones
!rc123#
!rcworld;
!redm0nd!
!rhino2010
!rimma!
!ritro99
!root!
!rootkit!
!rougeau!
!rrj1314
!ruah71!
!salemaan!
!saras2010!
!scc0mm
!schulhem!
!scsi2010
!seattle
!secretKey
!security
!sefer!d!s
!september
!shakil87
!shashank
!shearer9
!shenghuo224
!sherpa
!shit@
!shivani
!silver71
!simon!
!smc2804wbr
!sokk!88
!sophie!
!sourcream!
!stephane#16
!steve
!stinkfut!
!stranGe
!suntech21
!sunyan!
!suroki6
!swales22
!sweetsuji
!system238
!tan3gprq8!
!tany!
!te4chery
!tengzhi
!theravada8
!tn2010
!tom5042186
!tre!
!triko82!
!tron1969
!trooper01
!tst!m3
!turbo120?
!umsmms
!undle28
!unitel1
!unitel2
!urel@12
!usbya@
!v7w00!
!vagelio!
!ved0ne!t
!verena!
!version
!vins84
!vit!tel!
!voyeurzin!
!w4d4fu
!wander55
!warcraft13!
!webmaster.
!webrel!
!weirdNs
!wjf19880308
!wjl19870215
!wk1ou2
!woaini0
!worldpoint!
!xh?15871470857
!xuxian0218
!y309518
!yahfuckerz
!yangfan123/
!yasam1@
!yellow1
!yi5220009!
!yiannist@
!yomega135
!yvonne?
!zaisong0123
!zd3n!Z
!zer0!
!zhuyunliang1989
!zine
!zxc123
!zyf871010
!zzzz
!~woaini241629
"
""!@!?@*\
""""""""
""132
"&A!R&(
".password."
"///!!"
"/57492216
"12345
"1scooby7"
"33#
"3542199"
"39<0Y~c.;A1Bj
"5126PC"
"8095662
"8272438"
"==)!)(=
"><script>alert(1)</script>
"AAj6H
"Barkley1"
"Enn'720
"LHJ"3547982
"Liquidasset"
"Samuel1"
"antivirus"
"assured"
"catapult"
"chaseman"
"cisco123"
"d2support"
"evil1234"
"exercise"
"golfer11"
"hello"
"hotmail3"
"jamesbond007"
"jehes"
"jules522"
"july221995"
"lollol
"louconlan"
"micky36"
"monitor2005"
"not4sale"
"or1=1--
"pa$$w0rd"
"pass
"pumkin1"
"rabbittibbar
"tanner11"
"test"
"toskana"
"trend"
"trend1"
"trend4me"
"trendmicro"
"uamuam"
"xbox"!
#
#!Bash2010
#!df
#!nixgen
#!password
##
####
######
########
#######$$
######$$
####NOUS
####eric
####erich
####marc
####marlon
####opensesame
####rob
####shannon
####steph
###123asu
###91298700
###@$$@$$$
###_@@@
###silver
###sunwen
##0000#
##00ffy
##123
##123456
##12uhu
##972njm
##EICE#E8REOZ#
##Superman
##a123123
##alisa##85
##ati##
##erli##
##haibo
##inU0XyeB##
##kult##
##lliimmbboo
##mecenas
##o#kss##
##palpa##
##panflow623
##rotwein##
##student##
#$
#$#$$#$#$#$#$
#$%
#$19830908
#$@
#$^#$^
#$liu1974
#$ls0112365
#$sin
#%FSMO@17
#&)!((**
#&BSLN^^#
#))ZXTT
#*#&22
#*84125c
#*C101124
#*abc123456
#*c12345
#*c123456
#*c6724370
#,7QXr5
#-E/
#010203#
#0107@
#01bp
#01melanie#
#03philipp#
#05-05
#07
#100#
#111096#
#11876480
#123*pass#
#1231124
#1234#
#1234#max
#123456
#123456#
#123456789
#12345ABcde
#12dv--#
#13051jg
#1337isOK
#147147#
#14sas8z
#1536#
#15979988152
#1984#yang
#1Aviator
#1Broadb
#1Chisox
#1Employ
#1Frogman
#1Kalebs
#1LaserMan
#1N57RUC710N5
#1Password
#1Pcech
#1RAVENS
#1Ribbet
#1STUnna
#1Sassy
#1Winner
#1a@s1
#1amor
#1baby
#1ballers
#1bioquant
#1blessed
#1boobear
#1codeman
#1cookie
#1deejay
#1doxe
#1fordrea
#1friend
#1girl
#1goldsgym
#1honey
#1husband
#1jobo!!
#1l5x#
#1mack
#1marcus
#1momdad
#1monday
#1npo1957
#1nurse!
#1officemanager
#1physsci
#1pimpin
#1player
#1police1#
#1q2w3e
#1raiderfan
#1stuner
#1surgical
#1tinman
#1uchiha
#1uncle
#1vet
#1writer
#1yellow
#2##2#
#20060001
#20254045
#220893a#
#221150
#2230249
#271250#
#28rocks
#2k*st
#2str37+
#2sun#
#32teeth
#3Roseat
#3paramount
#3r45mu5!
#4#$is>
#4055
#454hehe
#45zt16#
#46231668#
#4Bajsar
#4Stove
#4_pm.
#4lm1r
#5211314
#5411033
#566*-
#5lover912
#629d2c3
#6410zengziwen
#654321#
#6711265#
#7$dD
#750katana#
#79Q=?
#7pchaca
#7willdo
#8
#83Tlalpan
#85gismo
#8880
#9513141o
#9906830
#:
#<BJA92
#@!0987
#@!52406
#@9183891@#
#@dmin
#@wep
#A$#A$#
#A9854#
#ADM_MACO#
#AYO#FUNSHO6#
#Admin 1
#Admin 4
#Admin 5
#Admin 6
#Adm|n17PW*
#Agn3s
#B@rk@b@ri#$
#BlurP#
#C0UL4BF#
#Denisa22
#E566
#EDC3edc
#EDC4rfv
#Engelberg86
#Ew5$F
#Gwendolyn
#I@r4
#India123
#Isabell#
#Jijiji
#Jn110284
#KBEK
#Kaffe
#M0tley2
#M0tley321
#M1a2r3a4
#M@th3us
#MJonker
#Magnum#
#Megatek99
#Mis2006
#N3RD$RUL3
#NAME?
#Noodles
#Nutella#
#PASSWORD#
#PlPl!
#Polyeucte#
#Q)3H\6UIFNJR8
#R0dr1g0
#R@f43l
#ROLAND#
#Sabsi
#Sencer
#SpreN07
#T1@go
#TX02102017
#TikiTaki#
#Tina2008#
#Ultimate$
#Utopia#
#V1n1c1us
#VAmnX
#WBS2005
#WC&B02
#Wang1030
#Whopper#1
#]B<[)#)KI
#^mafia
#a4s5d6#
#aC01wQ
#abc#2259
#abc123
#abc123#
#abcd1234
#account2
#adbanner!
#admin#
#admin1#
#ae1B2m!#
#aga123
#agl12$!
#ahqkdlf
#akina#
#akula7#
#allah#
#amesads#
#amominhafamilia#
#anth0ny1
#anubis78
#appel#
#asc951+
#ashtag
#athos#
#aumonerie#
#aveiro#
#baleno
#banner08
#besse63#
#biffen
#bluegt
#bogobogo
#bourne7#
#boy#
#butabee#
#c-cat
#caizhaobo#102
#carnaval#
#castel#
#cavallo666
#cemonko#
#chenZhi#
#chenfiy
#chenjing990113
#chirp
#chr@and
#cloclo#
#colorado#
#computer#
#conrad
#cpi#
#cru3t1c#
#csb0311
#csert656vwg#$$^
#design78
#dilo#
#directo42
#djcu75#
#doggy04
#dom#
#dsy452736
#dzw0803
#ector@1
#edde#
#einfach12
#elius#
#entrar12
#epsiwhm
#esp123#
#eusebio21
#f1751
#fasbest!
#fc198435
#ff0000
#ff8beb$
#ficelle#
#flatron92#
#followme
#fuckthis
#g3duh
#gamer87
#gexl37&
#ggluft55
#gibs04!
#goddi#
#goldhort
#gotan78
#h4ck3r#
#h4x0r#
#h613689
#h9k@
#heidi2010
#hejsan32
#hlcdjz$
#hope84
#hxf2118@4125095
#ilovezm#
#imhacker
#includ4
#include
#include123
#include198878
#include90
#includeiostream
#intel12#
#jaegarn1
#jamnagar10
#janna
#jimco#
#jiubugaosuni#
#john123#
#joliot-curie#
#jorge!
#journal#
#kaRUCi
#kanalia99
#kebab
#kevin520#
#khan
#kowalski06
#krones#
#l3phan!
#lasvegas#
#lauras#
#lcr#
#levin03
#lj4301986007LjB
#lkjlkj#
#loginmaluco
#lols101
#m4y1981
#m5200
#m@nz1kurt1071
#maci0525
#made in usa#
#mago#
#mamour#
#manos123#
#march04
#mariage#
#may##
#mcland#
#merak85
#miletic#
#mirijos#
#mkh#
#momaga#
#mor#12
#motorbike#
#n4get09
#nafets#
#nagra981
#nbke73
#net@pass
#neweze9
#ngm@9210
#nibor#
#nirvanaforum#
#nisus
#oney&33
#palinta72
#pascal2050#
#pcadmin#
#pd2911
#pedro05
#philou59#
#pinhead69
#pirat0
#planetexpress#
#poke128
#prodigy1!
#puppetmastaz#
#purple000
#pwnage
#qazwsx40
#queen49
#r16$c13
#r@f@3l$
#real82
#realee94
#redlotus
#rex1234
#rgb02951
#rjd#
#s5162
#saller164
#samsung#
#sapeca#
#sean#
#secret#
#segreta#
#september
#shharea#
#sim69#
#sl3e$
#sme!!$hm3*]
#sminfo_
#snqy761210#
#soccer
#sofia2608
#sonstwas
#stormphpbb
#suomi14656
#suomi74
#sv-data#
#sweet#
#tabsel52
#teikav
#test$web
#tiralarc#
#tmp724
#tom
#tomtom#
#ts#
#tueur59
#tutis2
#twins#
#u2f16v8#
#uldo05#
#undeuxtrois#
#uniyacherish#
#updat3
#user11#
#varvet
#ved7f
#vedas07
#vitsrus2
#vomi#
#vtcvs?
#vvw3dde
#wdd906.
#webmasterpass#
#welcome
#wusud1a
#wzh653298
#x4+k5zt
#xWR^
#xastre#
#xncf123
#yd3ey7a
#z1x2c3#
#zhang1987
#zhengsong3##
#zhs&681421
#zhyp2009
$
$  yinjuntao
$!@ifh
$!err@R0b
$!nus
$########
$#####$$$
$#@!
$#@!%^&*()
$#@!r4e3w2q1
$#@!skyline
$#pal&$
$$####$$$$
$$$###$$$
$$$#$#####
$$$$
$$$$####
$$$$##$#
$$$$$
$$$$$####
$$$$$$
$$$$$$$$
$$$$$$$$$$
$$$$$$$n135
$$$$$$444444
$$$$$$n135
$$$$$@@@@@
$$$$****
$$$$1111
$$$4058299
$$$777
$$$admin
$$$gn135
$$$lemon
$$$lzx521
$$$m4tr41
$$$masterj
$$$server
$$$swing
$$%%^^
$$)(
$$*********
$$0000$$
$$01504u
$$0305$$
$$0312rl
$$136b8296c4949d@@
$$321n
$$ADMIN$$
$$ALVARO6
$$Express$$
$$Jo54Lad1!!
$$MBMB$$
$$Studt1
$$T0NE22$
$$WORKHORSE
$$aP123
$$aa1155
$$adm00
$$aguila1
$$alex$$
$$amipc!
$$anillo
$$apfel$$
$$bulli$$
$$csabaa$$
$$david$$
$$hbdz235
$$jackjack
$$jasmine
$$jaycat008
$$megadios
$$million
$$onmymind
$$sharan$$
$$sr87ku
$$whatisthematrix
$$wo1289wo@@
$$zxh123
$%$#$
$%$SERVER5867
$%&
$%Tyler99
$%^!@#99X
$%^&*(
$%^^&#%^#$
$%cm4d
$%zhangchi
$&#&%$@
$&))dea
$-HD?G6M3J%4CP
$0$#EF
$01asuka
$023560$
$08051989
$09551948W
$0N1C%
$0PROF10
$0ld@2v
$0ph!33
$0ph|e
$1$$EceVAwadNboWKXCg2DfVp1
$1$$i63gBKzKSznjzUiEWRZh0.
$1$A$OsW5TjmIcgkbKylJ6NkWP
$1$xxJB$bV79PPPRMT1dNXglbKfhs
$10Million
$1111111
$122/3$
$1234#
$123456$
$12345v
$1234qwer
$12AA21$
$13092001
$13n@
$19.99
$1964733112012857$
$1987110#
$1@m3Se
$1A97tkg12A3D>
$1D0ll@r
$1RVT3K$
$1^3qiCpANV/7(0%
$1gobrowns
$2003fn
$24122005$
$2459$Ba
$252633$
$2ie67$
$32Pedregal
$33_champ
$3@!ch
$3A$0N08
$3CuR3l0g!N09
$3pp!1212
$3rv1c3
$3vereWx
$4$4ADMIN
$44alvergo
$455093
$45abXm9
$45test
$4foxglove
$4me@1s
$4more
$5Snake
$5ZebkA
$5cepakna(kiju)9%
$6%5
$6*PJ
$70lic#a
$78Q496D'*6<JP
$82wx4
$8Ginger
$8hg4646
$90HFB972
$99119513
$9claude$
$@!(!^&
$@MTHERAM
$@^@th
$@dmin%
$@h4myHP
$@nt0$h
$@nto9
$A()()!
$ADMACT$
$ADMIN.100
$AN6r1@
$Admin123
$Albert$
$Amitie7
$Autolite
$BEN$
$BLING$
$Baseball
$Benjamin
$Bg%P$01
$CASH$
$CAUP2.5
$CHUMI666
$CINCOMI6
$CPDH789DHCP$X
$CRAP_MAN
$CWZW59
$DAAweb
$Delfin2$
$Donte\'$
$DragoN911
$Dte1980
$E512166
$E784808
$ESLZ'
$Epaac14
$G-Unit$
$Girls06
$Glendale3
$H$75Z7AYIXU3Z
$H$7B8UUCW7PT0
$Hallo!
$Hamid
$Honey038
$ICTADMIN$
$Ing1$
$JOSHUA$
$Jamez1$
$Jazzi01
$K3`VLF8X>::AH
$KATEb0ard
$KCU2I56ZTC51]
$LABTEL
$LALakers
$LM
$Latvia1
$MA'ADEN*
$MET7R0ID?
$MHR0609
$Mar7pj3
$Mth9htm9
$Mulder6
$NELSON$
$Opt1plex
$P$BDYUCMozJ
$PAss123!
$Passwor
$Prd2007$
$Ptr1204$
$QU(7NVTP6X:-*
$R4inm4n$
$REDZONE$
$RFV4rfv
$Reyna123
$SSD007MD%
$Scooby001$
$Stary200
$TRTJ!M
$Tallow$
$Tobi$
$Tr3sp3r
$U$$I1993
$USmarines1
$WJLBm1a
$Wollt2
$X$
$Yz3rman
$Z1k1a3$
$Zymon18
$^#@colts
$^Adf(-
$^poiuytreza
$_POST[pass]
$_T090788
$_matches
$a2s3d4f5g
$aLica01
$aPass
$aVer123
$aartje
$acastillo&
$achosen1
$acomnetadmin
$act
$actions
$adm_pwd
$admin$
$agem001
$al0cin
$al0me
$al13nt
$alco1985$
$alex@nz
$alexander$
$alinas99
$allval
$alpha2zeta
$am
$amer$ou
$america$
$ammy055
$anbu$
$andboys
$andu@1
$andy
$angio
$ans
$anskrit
$aoses&
$arr
$as120506
$asli
$audi100
$av5290
$avetheW0rld
$aw!q*
$ax0ph0ne
$b33nh3r3
$barnes$
$basti$
$bilbao0
$biz#805!
$bosnia
$brandy$
$breeze$
$brent111
$byte
$c
$c0RP10n$
$c@n$
$cHAUHAN$
$cOulY
$captcha$
$carhole
$cc181286
$cdata
$checkworm
$chela99
$chnuck3
$chopka
$cience5
$cj849250
$clacruz&
$cnt
$cocorico$
$codeid
$col
$cols
$con
$continue
$cook_arr
$cookie_name
$cookie_val
$cooterr
$corpion1990
$cotch
$count
$cp425948
$cr099!t
$cr@tum
$cucslcc
$d0m3n1c0$
$dada01
$dakota$
$danbfv42
$data
$del
$dephani#
$dephani#12
$description
$dff180
$dg_sek
$divad!
$dk90hju
$dmoney
$dodo$
$dominic$
$donaustadt!
$done
$dr@@kje$
$dragon
$dufeng19850707
$eb@d0h
$ec@ir1
$ecur!ty
$edunet$
$eema123
$efti#@!
$elo357
$emagjk$
$email
$enor1t@
$equred
$er8ova
$ergio
$erv3r
$espinosa$
$ev3ral
$events
$f
$f&-5@
$f2mlw
$fa9s111
$fart$
$fashion05$
$fatman$
$fazer600
$fbvier
$field
$fields
$file
$file_gid
$file_gidn
$file_info
$file_stat
$file_uid
$file_uidn
$firekuci$
$fld
$fldata
$flo1979
$foper
$fr44zz$
$frizup
$full_url
$func
$function_name
$g1raffe5*
$g2buy$
$g_cols
$gaelle19
$geheim007$
$get_arr
bond007
test
